#ifndef MODEL_DATA_H
#define MODEL_DATA_H
const unsigned char tflite_model[] = { 0x1c, 0x00, 0x00, 0x00, 0x54, 0x46, 0x4c, 0x33, 0x14, 0x00, 0x20, 0x00, 0x1c, 0x00, 0x18, 0x00, 0x14, 0x00, 0x10, 0x00, 0x0c, 0x00, 0x00, 0x00, 0x08, 0x00, 0x04, 0x00, 0x14, 0x00, 0x00, 0x00, 0x1c, 0x00, 0x00, 0x00, 0x8c, 0x00, 0x00, 0x00, 0xe4, 0x00, 0x00, 0x00, 0x2c, 0x06, 0x00, 0x00, 0x3c, 0x06, 0x00, 0x00, 0x98, 0x0d, 0x00, 0x00, 0x03, 0x00, 0x00, 0x00, 0x01, 0x00, 0x00, 0x00, 0x04, 0x00, 0x00, 0x00, 0x82, 0xf9, 0xff, 0xff, 0x0c, 0x00, 0x00, 0x00, 0x1c, 0x00, 0x00, 0x00, 0x3c, 0x00, 0x00, 0x00, 0x0f, 0x00, 0x00, 0x00, 0x73, 0x65, 0x72, 0x76, 0x69, 0x6e, 0x67, 0x5f, 0x64, 0x65, 0x66, 0x61, 0x75, 0x6c, 0x74, 0x00, 0x01, 0x00, 0x00, 0x00, 0x04, 0x00, 0x00, 0x00, 0x90, 0xff, 0xff, 0xff, 0x0d, 0x00, 0x00, 0x00, 0x04, 0x00, 0x00, 0x00, 0x08, 0x00, 0x00, 0x00, 0x64, 0x65, 0x6e, 0x73, 0x65, 0x5f, 0x31, 0x33, 0x00, 0x00, 0x00, 0x00, 0x01, 0x00, 0x00, 0x00, 0x04, 0x00, 0x00, 0x00, 0x5a, 0xfa, 0xff, 0xff, 0x04, 0x00, 0x00, 0x00, 0x0e, 0x00, 0x00, 0x00, 0x64, 0x65, 0x6e, 0x73, 0x65, 0x5f, 0x31, 0x30, 0x5f, 0x69, 0x6e, 0x70, 0x75, 0x74, 0x00, 0x00, 0x02, 0x00, 0x00, 0x00, 0x34, 0x00, 0x00, 0x00, 0x04, 0x00, 0x00, 0x00, 0xdc, 0xff, 0xff, 0xff, 0x10, 0x00, 0x00, 0x00, 0x04, 0x00, 0x00, 0x00, 0x13, 0x00, 0x00, 0x00, 0x43, 0x4f, 0x4e, 0x56, 0x45, 0x52, 0x53, 0x49, 0x4f, 0x4e, 0x5f, 0x4d, 0x45, 0x54, 0x41, 0x44, 0x41, 0x54, 0x41, 0x00, 0x08, 0x00, 0x0c, 0x00, 0x08, 0x00, 0x04, 0x00, 0x08, 0x00, 0x00, 0x00, 0x0f, 0x00, 0x00, 0x00, 0x04, 0x00, 0x00, 0x00, 0x13, 0x00, 0x00, 0x00, 0x6d, 0x69, 0x6e, 0x5f, 0x72, 0x75, 0x6e, 0x74, 0x69, 0x6d, 0x65, 0x5f, 0x76, 0x65, 0x72, 0x73, 0x69, 0x6f, 0x6e, 0x00, 0x11, 0x00, 0x00, 0x00, 0x44, 0x05, 0x00, 0x00, 0x3c, 0x05, 0x00, 0x00, 0x28, 0x05, 0x00, 0x00, 0x00, 0x05, 0x00, 0x00, 0xd0, 0x04, 0x00, 0x00, 0x80, 0x04, 0x00, 0x00, 0x70, 0x03, 0x00, 0x00, 0x60, 0x01, 0x00, 0x00, 0xd0, 0x00, 0x00, 0x00, 0xb0, 0x00, 0x00, 0x00, 0xa8, 0x00, 0x00, 0x00, 0xa0, 0x00, 0x00, 0x00, 0x98, 0x00, 0x00, 0x00, 0x90, 0x00, 0x00, 0x00, 0x88, 0x00, 0x00, 0x00, 0x68, 0x00, 0x00, 0x00, 0x04, 0x00, 0x00, 0x00, 0x1a, 0xfb, 0xff, 0xff, 0x04, 0x00, 0x00, 0x00, 0x54, 0x00, 0x00, 0x00, 0x0c, 0x00, 0x00, 0x00, 0x08, 0x00, 0x0e, 0x00, 0x08, 0x00, 0x04, 0x00, 0x08, 0x00, 0x00, 0x00, 0x10, 0x00, 0x00, 0x00, 0x24, 0x00, 0x00, 0x00, 0x00, 0x00, 0x06, 0x00, 0x08, 0x00, 0x04, 0x00, 0x06, 0x00, 0x00, 0x00, 0x04, 0x00, 0x00, 0x00, 0x00, 0x00, 0x00, 0x00, 0x00, 0x00, 0x0a, 0x00, 0x10, 0x00, 0x0c, 0x00, 0x08, 0x00, 0x04, 0x00, 0x0a, 0x00, 0x00, 0x00, 0x02, 0x00, 0x00, 0x00, 0x02, 0x00, 0x00, 0x00, 0x04, 0x00, 0x00, 0x00, 0x06, 0x00, 0x00, 0x00, 0x32, 0x2e, 0x31, 0x33, 0x2e, 0x31, 0x00, 0x00, 0x7a, 0xfb, 0xff, 0xff, 0x04, 0x00, 0x00, 0x00, 0x10, 0x00, 0x00, 0x00, 0x31, 0x2e, 0x31, 0x34, 0x2e, 0x30, 0x00, 0x00, 0x00, 0x00, 0x00, 0x00, 0x00, 0x00, 0x00, 0x00, 0x40, 0xf4, 0xff, 0xff, 0x44, 0xf4, 0xff, 0xff, 0x48, 0xf4, 0xff, 0xff, 0x4c, 0xf4, 0xff, 0xff, 0x50, 0xf4, 0xff, 0xff, 0xaa, 0xfb, 0xff, 0xff, 0x04, 0x00, 0x00, 0x00, 0x10, 0x00, 0x00, 0x00, 0x8a, 0x28, 0x8e, 0xbf, 0x1b, 0xc0, 0x6c, 0xbf, 0x94, 0x0d, 0x62, 0x3f, 0x7b, 0x78, 0x87, 0x3f, 0xc6, 0xfb, 0xff, 0xff, 0x04, 0x00, 0x00, 0x00, 0x80, 0x00, 0x00, 0x00, 0x5f, 0xe6, 0x4a, 0xbf, 0xbb, 0x52, 0x0f, 0xbe, 0x6b, 0x08, 0xd6, 0xbf, 0x4d, 0x2a, 0xe5, 0xbf, 0x74, 0x4e, 0x09, 0xbe, 0xfa, 0x17, 0xdb, 0x3e, 0x97, 0x9f, 0xdb, 0x3e, 0x69, 0x71, 0x5b, 0x3e, 0x91, 0xc2, 0x3f, 0x3e, 0x40, 0xc0, 0x17, 0x3f, 0x1f, 0x82, 0xbe, 0x3e, 0xcb, 0xf0, 0x0f, 0x3f, 0x67, 0xf9, 0x73, 0x3f, 0x65, 0xfb, 0xae, 0xbe, 0x75, 0x16, 0x36, 0xbf, 0x4c, 0x4f, 0x2c, 0xbe, 0x07, 0xe9, 0x47, 0x3f, 0x55, 0x36, 0xdf, 0xbf, 0xd0, 0xce, 0x3b, 0x3e, 0x42, 0x48, 0x1f, 0x3f, 0x76, 0x69, 0x7b, 0xbf, 0x85, 0x41, 0xcd, 0xbf, 0x86, 0x2b, 0x0c, 0xc0, 0xf3, 0x26, 0x12, 0xc0, 0x65, 0xe3, 0x42, 0xbf, 0x3a, 0x73, 0x11, 0xbe, 0x87, 0x25, 0x1c, 0x3f, 0x39, 0x80, 0x72, 0x3e, 0x9b, 0xf8, 0x5f, 0xbf, 0x2e, 0x4c, 0xb8, 0xbf, 0x27, 0x5d, 0xb6, 0xbf, 0xda, 0x58, 0xac, 0xbf, 0x52, 0xfc, 0xff, 0xff, 0x04, 0x00, 0x00, 0x00, 0x00, 0x02, 0x00, 0x00, 0x91, 0x75, 0x06, 0xc0, 0xac, 0x00, 0x94, 0x3e, 0x40, 0x20, 0x40, 0x3d, 0x50, 0x63, 0x0e, 0x3e, 0x48, 0x6e, 0x36, 0x3e, 0xbb, 0x16, 0x07, 0xc0, 0x56, 0x31, 0x48, 0x3d, 0x70, 0x61, 0xd7, 0xbf, 0x30, 0x3b, 0x91, 0x3d, 0xce, 0x92, 0xf8, 0x3d, 0xac, 0xbe, 0x90, 0xbe, 0x00, 0x02, 0x39, 0x3c, 0x2c, 0x10, 0x08, 0xc0, 0xcc, 0xa3, 0x9f, 0xbe, 0x3b, 0xa6, 0xdc, 0x3e, 0x24, 0x53, 0xde, 0x3e, 0xdb, 0x83, 0x1c, 0x3f, 0x24, 0x80, 0x9a, 0xbe, 0xff, 0x26, 0x6b, 0xbd, 0x10, 0x6b, 0xd4, 0xbe, 0x70, 0xdd, 0xf3, 0xbe, 0x0d, 0x77, 0x1f, 0x3f, 0xd6, 0x83, 0x43, 0xbd, 0x13, 0x61, 0xa1, 0x3f, 0xc0, 0x0f, 0xe0, 0x3c, 0xb9, 0xe0, 0x96, 0xbd, 0xe8, 0x34, 0xdb, 0x3e, 0x48, 0xcd, 0xa8, 0xbe, 0x66, 0x92, 0x8d, 0x3f, 0xc0, 0x95, 0x78, 0xbe, 0xd9, 0x6e, 0xd4, 0xbe, 0xe0, 0x80, 0xf1, 0x3e, 0x74, 0x6b, 0xd1, 0xbf, 0x3c, 0x0a, 0xe9, 0x3e, 0x31, 0x3d, 0x1b, 0x3d, 0x34, 0xa6, 0xf5, 0x3e, 0xb0, 0x0f, 0x9d, 0x3e, 0x0b, 0x80, 0xbc, 0xbf, 0x58, 0x77, 0x9d, 0x3d, 0x34, 0x64, 0xaa, 0xbf, 0xfc, 0xc6, 0xcf, 0x3e, 0x26, 0xd6, 0xef, 0x3c, 0xb0, 0x33, 0x1a, 0xbe, 0xb4, 0x7a, 0xfb, 0xbe, 0x48, 0x50, 0xb6, 0xbf, 0x87, 0x71, 0xf9, 0xbd, 0x06, 0x78, 0x92, 0x3e, 0x78, 0x67, 0x7f, 0x3e, 0x08, 0x5d, 0xe4, 0xbf, 0x8c, 0xdf, 0xc6, 0xbe, 0x08, 0x71, 0x2b, 0x3d, 0x20, 0x8e, 0x7d, 0xbd, 0x60, 0x11, 0xec, 0xbd, 0xe7, 0x6c, 0xdc, 0xbf, 0xe1, 0x4a, 0x6f, 0x3d, 0x8c, 0x76, 0xb6, 0xbf, 0x58, 0x35, 0xe7, 0xbe, 0x18, 0xa0, 0x6f, 0x3d, 0xc8, 0x4d, 0x5e, 0xbe, 0xc0, 0x36, 0x8c, 0xbd, 0x90, 0xcc, 0xea, 0xbf, 0x40, 0xd2, 0x9d, 0xbd, 0x03, 0x3b, 0x2c, 0x3e, 0x28, 0x54, 0xc2, 0xbe, 0x7f, 0x0e, 0x12, 0x3f, 0x50, 0xa2, 0x86, 0xbe, 0x56, 0x72, 0x91, 0xbe, 0xc0, 0x31, 0xc7, 0x3e, 0x00, 0x14, 0xbe, 0x3c, 0x03, 0x72, 0x73, 0x3e, 0xd2, 0x16, 0xfe, 0xbe, 0xd6, 0x56, 0xfb, 0x3e, 0x74, 0xf8, 0xf8, 0x3e, 0x21, 0x05, 0x03, 0xbf, 0x88, 0x99, 0x9b, 0xbe, 0x58, 0x52, 0x8e, 0x3e, 0x6a, 0xae, 0xd8, 0x3e, 0x9b, 0x46, 0x25, 0xbe, 0x99, 0x5e, 0xb8, 0xbe, 0x48, 0x5e, 0xb9, 0x3e, 0xb4, 0x96, 0x3f, 0xbe, 0x80, 0xe9, 0xdb, 0x3d, 0x59, 0x68, 0x81, 0x3a, 0x40, 0xf7, 0xfb, 0x3e, 0xe0, 0xd8, 0x21, 0x3d, 0x96, 0xbe, 0x06, 0x3f, 0xb8, 0xad, 0x0b, 0xbb, 0x19, 0x18, 0x4a, 0x3f, 0x40, 0x1e, 0x44, 0xbd, 0x96, 0x36, 0xfb, 0x3b, 0xcc, 0x3d, 0x92, 0xbe, 0xc0, 0xd4, 0xe9, 0xbd, 0xb4, 0x37, 0x1c, 0x3f, 0x8d, 0xef, 0x72, 0x3e, 0xea, 0x51, 0xdc, 0x3e, 0x00, 0xf8, 0x2a, 0x3c, 0xf6, 0xda, 0x62, 0x3f, 0xf8, 0xf8, 0xb7, 0x3e, 0xe7, 0x9e, 0x90, 0xbe, 0x00, 0x6c, 0xc2, 0x3a, 0xa4, 0x92, 0xf8, 0x3e, 0x38, 0xfb, 0xfe, 0x3e, 0x47, 0x01, 0xcb, 0xbe, 0xd1, 0xc6, 0x89, 0x3f, 0xb0, 0x55, 0x57, 0x3e, 0x28, 0x7e, 0xdf, 0xbe, 0xcc, 0xdf, 0x97, 0xbe, 0x88, 0x05, 0xd1, 0xbe, 0x7e, 0x79, 0x46, 0x3f, 0xb6, 0x86, 0x0f, 0xbe, 0x71, 0xba, 0x81, 0xbd, 0xd4, 0x08, 0x8a, 0x3e, 0x1b, 0xe0, 0x00, 0x3f, 0x44, 0x19, 0xc9, 0x3e, 0x44, 0xc1, 0x05, 0xbe, 0x80, 0x22, 0xc9, 0xbe, 0x48, 0x7b, 0x65, 0x3e, 0xc7, 0x1f, 0x00, 0x3f, 0x6a, 0xb0, 0x2b, 0xbe, 0x08, 0x87, 0x74, 0x3f, 0x10, 0x0f, 0xa7, 0xbe, 0xec, 0xf0, 0x01, 0xbe, 0xdc, 0x29, 0x80, 0xbe, 0x48, 0x29, 0x83, 0x3e, 0x31, 0xb3, 0x61, 0x3f, 0x20, 0x6f, 0x91, 0x3e, 0x4f, 0x15, 0x78, 0xbd, 0x64, 0x59, 0x8f, 0xbe, 0x5e, 0xfe, 0xff, 0xff, 0x04, 0x00, 0x00, 0x00, 0x00, 0x01, 0x00, 0x00, 0xc0, 0x40, 0x39, 0xbe, 0xf7, 0x66, 0xf1, 0x3e, 0x9c, 0xf1, 0xc5, 0x3d, 0x4f, 0x1f, 0x40, 0xbf, 0x02, 0x82, 0x7d, 0xbe, 0x9c, 0x9f, 0xa6, 0xbd, 0x6c, 0x1e, 0x03, 0x3e, 0x4a, 0xba, 0xf8, 0xbe, 0xcd, 0xf8, 0x5e, 0x3e, 0x43, 0x4c, 0x82, 0xbe, 0x53, 0xbe, 0x85, 0x3f, 0x0c, 0x6a, 0x9e, 0xbe, 0xe0, 0xbe, 0x92, 0xbc, 0x4a, 0x0c, 0x30, 0xbe, 0x69, 0x6f, 0xbf, 0xbe, 0x6c, 0x8a, 0x64, 0x3e, 0x00, 0xe6, 0x12, 0xbc, 0x38, 0x99, 0x05, 0xbf, 0x10, 0x87, 0x3b, 0xbd, 0xe0, 0x99, 0xee, 0x3e, 0x15, 0xe9, 0x1a, 0xbf, 0xf6, 0x4d, 0x15, 0x3f, 0xa7, 0xc4, 0x94, 0x3d, 0xe1, 0x82, 0x23, 0xbb, 0x31, 0x43, 0xf0, 0x3d, 0xdb, 0x91, 0xa8, 0xbe, 0xc4, 0x2b, 0x35, 0x3f, 0xc6, 0xd0, 0x95, 0x3e, 0xc9, 0xe1, 0x2b, 0xbb, 0xa6, 0x69, 0xb1, 0x3e, 0xcb, 0xb9, 0xaf, 0xbf, 0x5d, 0x4d, 0xcf, 0xbe, 0xd8, 0xf7, 0x8e, 0xbd, 0xae, 0x05, 0xfe, 0xbe, 0x0a, 0x40, 0xd9, 0x3e, 0x1c, 0x25, 0x62, 0xbe, 0x82, 0xaf, 0x1a, 0x3e, 0xc3, 0x7a, 0xfb, 0xbe, 0x5f, 0x6e, 0x4f, 0x3f, 0xe5, 0xab, 0x07, 0x3f, 0x74, 0x30, 0x54, 0xbe, 0x25, 0x24, 0x89, 0xbe, 0x28, 0x9a, 0xf1, 0x3e, 0xb4, 0x3e, 0x9d, 0x3e, 0xbe, 0x03, 0xd7, 0xbe, 0xfa, 0xc8, 0x0b, 0xbf, 0xcc, 0x45, 0xb1, 0x3e, 0xd4, 0x7a, 0xe0, 0x3e, 0xe6, 0xe4, 0x2a, 0xbf, 0x0f, 0x3e, 0xc0, 0x3e, 0xae, 0x62, 0x72, 0x3d, 0xa9, 0x29, 0x21, 0x3f, 0x19, 0x47, 0xf2, 0xbe, 0xb4, 0x2e, 0xac, 0x3e, 0x8b, 0xeb, 0x15, 0x3e, 0x34, 0xe1, 0x06, 0xbf, 0xb5, 0xd3, 0x99, 0x3e, 0x84, 0x08, 0x88, 0xbe, 0x70, 0x25, 0x0a, 0xbf, 0x3e, 0x01, 0x0d, 0xbf, 0xe6, 0xe4, 0xef, 0xbe, 0x23, 0xb7, 0xad, 0xbe, 0x82, 0x0f, 0xa1, 0x3e, 0x70, 0x1b, 0xff, 0x3e, 0x6a, 0xff, 0xff, 0xff, 0x04, 0x00, 0x00, 0x00, 0x40, 0x00, 0x00, 0x00, 0x58, 0x84, 0x86, 0xbe, 0x00, 0x00, 0x00, 0x00, 0x77, 0xeb, 0xec, 0xbd, 0x00, 0x00, 0x00, 0x00, 0x00, 0x00, 0x00, 0x00, 0x2e, 0x0c, 0x3d, 0x3e, 0x7c, 0xbc, 0x51, 0xbe, 0x62, 0x2c, 0xb2, 0x3c, 0x00, 0x00, 0x00, 0x00, 0xa2, 0xd6, 0x20, 0x3e, 0x00, 0x00, 0x00, 0x00, 0x00, 0x00, 0x00, 0x00, 0x80, 0xf5, 0x8b, 0x3e, 0xc8, 0x78, 0x90, 0xbc, 0x76, 0xf7, 0x97, 0xbd, 0x00, 0x00, 0x00, 0x00, 0xb6, 0xff, 0xff, 0xff, 0x04, 0x00, 0x00, 0x00, 0x20, 0x00, 0x00, 0x00, 0x96, 0x0f, 0x20, 0xba, 0x4f, 0x3d, 0xe8, 0x3d, 0xf4, 0xdb, 0xc4, 0xbd, 0x03, 0x5d, 0xce, 0xbd, 0x19, 0xe8, 0xc1, 0x3e, 0xfa, 0x35, 0x1b, 0xbf, 0xfb, 0xf2, 0x3c, 0x3e, 0xf2, 0x34, 0x05, 0x3e, 0xe2, 0xff, 0xff, 0xff, 0x04, 0x00, 0x00, 0x00, 0x10, 0x00, 0x00, 0x00, 0xbe, 0x84, 0x47, 0x3f, 0x54, 0xa9, 0x05, 0xbf, 0x22, 0xd0, 0x2b, 0x3f, 0x55, 0x6d, 0xe0, 0x3e, 0x00, 0x00, 0x06, 0x00, 0x08, 0x00, 0x04, 0x00, 0x06, 0x00, 0x00, 0x00, 0x04, 0x00, 0x00, 0x00, 0x04, 0x00, 0x00, 0x00, 0xa9, 0x23, 0x74, 0x3f, 0xc0, 0xf8, 0xff, 0xff, 0xc4, 0xf8, 0xff, 0xff, 0x0f, 0x00, 0x00, 0x00, 0x4d, 0x4c, 0x49, 0x52, 0x20, 0x43, 0x6f, 0x6e, 0x76, 0x65, 0x72, 0x74, 0x65, 0x64, 0x2e, 0x00, 0x01, 0x00, 0x00, 0x00, 0x14, 0x00, 0x00, 0x00, 0x00, 0x00, 0x0e, 0x00, 0x18, 0x00, 0x14, 0x00, 0x10, 0x00, 0x0c, 0x00, 0x08, 0x00, 0x04, 0x00, 0x0e, 0x00, 0x00, 0x00, 0x14, 0x00, 0x00, 0x00, 0x1c, 0x00, 0x00, 0x00, 0x40, 0x01, 0x00, 0x00, 0x44, 0x01, 0x00, 0x00, 0x48, 0x01, 0x00, 0x00, 0x04, 0x00, 0x00, 0x00, 0x6d, 0x61, 0x69, 0x6e, 0x00, 0x00, 0x00, 0x00, 0x05, 0x00, 0x00, 0x00, 0xe8, 0x00, 0x00, 0x00, 0xa0, 0x00, 0x00, 0x00, 0x68, 0x00, 0x00, 0x00, 0x34, 0x00, 0x00, 0x00, 0x10, 0x00, 0x00, 0x00, 0x00, 0x00, 0x0a, 0x00, 0x10, 0x00, 0x0c, 0x00, 0x08, 0x00, 0x04, 0x00, 0x0a, 0x00, 0x00, 0x00, 0x0c, 0x00, 0x00, 0x00, 0x10, 0x00, 0x00, 0x00, 0x01, 0x00, 0x00, 0x00, 0x01, 0x00, 0x00, 0x00, 0x0d, 0x00, 0x00, 0x00, 0x01, 0x00, 0x00, 0x00, 0x0c, 0x00, 0x00, 0x00, 0x66, 0xff, 0xff, 0xff, 0x10, 0x00, 0x00, 0x00, 0x00, 0x00, 0x00, 0x08, 0x0c, 0x00, 0x00, 0x00, 0x10, 0x00, 0x00, 0x00, 0x70, 0xf9, 0xff, 0xff, 0x01, 0x00, 0x00, 0x00, 0x0c, 0x00, 0x00, 0x00, 0x03, 0x00, 0x00, 0x00, 0x0b, 0x00, 0x00, 0x00, 0x08, 0x00, 0x00, 0x00, 0x01, 0x00, 0x00, 0x00, 0x96, 0xff, 0xff, 0xff, 0x10, 0x00, 0x00, 0x00, 0x00, 0x00, 0x00, 0x08, 0x10, 0x00, 0x00, 0x00, 0x14, 0x00, 0x00, 0x00, 0x86, 0xff, 0xff, 0xff, 0x00, 0x00, 0x00, 0x01, 0x01, 0x00, 0x00, 0x00, 0x0b, 0x00, 0x00, 0x00, 0x03, 0x00, 0x00, 0x00, 0x0a, 0x00, 0x00, 0x00, 0x07, 0x00, 0x00, 0x00, 0x02, 0x00, 0x00, 0x00, 0xca, 0xff, 0xff, 0xff, 0x10, 0x00, 0x00, 0x00, 0x00, 0x00, 0x00, 0x08, 0x10, 0x00, 0x00, 0x00, 0x14, 0x00, 0x00, 0x00, 0xba, 0xff, 0xff, 0xff, 0x00, 0x00, 0x00, 0x01, 0x01, 0x00, 0x00, 0x00, 0x0a, 0x00, 0x00, 0x00, 0x03, 0x00, 0x00, 0x00, 0x09, 0x00, 0x00, 0x00, 0x06, 0x00, 0x00, 0x00, 0x03, 0x00, 0x00, 0x00, 0x00, 0x00, 0x0e, 0x00, 0x16, 0x00, 0x00, 0x00, 0x10, 0x00, 0x0c, 0x00, 0x0b, 0x00, 0x04, 0x00, 0x0e, 0x00, 0x00, 0x00, 0x18, 0x00, 0x00, 0x00, 0x00, 0x00, 0x00, 0x08, 0x18, 0x00, 0x00, 0x00, 0x1c, 0x00, 0x00, 0x00, 0x00, 0x00, 0x06, 0x00, 0x08, 0x00, 0x07, 0x00, 0x06, 0x00, 0x00, 0x00, 0x00, 0x00, 0x00, 0x01, 0x01, 0x00, 0x00, 0x00, 0x09, 0x00, 0x00, 0x00, 0x03, 0x00, 0x00, 0x00, 0x00, 0x00, 0x00, 0x00, 0x05, 0x00, 0x00, 0x00, 0x04, 0x00, 0x00, 0x00, 0x01, 0x00, 0x00, 0x00, 0x0d, 0x00, 0x00, 0x00, 0x01, 0x00, 0x00, 0x00, 0x00, 0x00, 0x00, 0x00, 0x0e, 0x00, 0x00, 0x00, 0x84, 0x05, 0x00, 0x00, 0x10, 0x05, 0x00, 0x00, 0x9c, 0x04, 0x00, 0x00, 0x40, 0x04, 0x00, 0x00, 0xe4, 0x03, 0x00, 0x00, 0x94, 0x03, 0x00, 0x00, 0x44, 0x03, 0x00, 0x00, 0xf4, 0x02, 0x00, 0x00, 0xa4, 0x02, 0x00, 0x00, 0x0c, 0x02, 0x00, 0x00, 0x74, 0x01, 0x00, 0x00, 0xdc, 0x00, 0x00, 0x00, 0x60, 0x00, 0x00, 0x00, 0x04, 0x00, 0x00, 0x00, 0xca, 0xfa, 0xff, 0xff, 0x00, 0x00, 0x00, 0x01, 0x14, 0x00, 0x00, 0x00, 0x1c, 0x00, 0x00, 0x00, 0x1c, 0x00, 0x00, 0x00, 0x0e, 0x00, 0x00, 0x00, 0x34, 0x00, 0x00, 0x00, 0x02, 0x00, 0x00, 0x00, 0xff, 0xff, 0xff, 0xff, 0x01, 0x00, 0x00, 0x00, 0xb4, 0xfa, 0xff, 0xff, 0x19, 0x00, 0x00, 0x00, 0x53, 0x74, 0x61, 0x74, 0x65, 0x66, 0x75, 0x6c, 0x50, 0x61, 0x72, 0x74, 0x69, 0x74, 0x69, 0x6f, 0x6e, 0x65, 0x64, 0x43, 0x61, 0x6c, 0x6c, 0x3a, 0x30, 0x00, 0x00, 0x00, 0x02, 0x00, 0x00, 0x00, 0x01, 0x00, 0x00, 0x00, 0x01, 0x00, 0x00, 0x00, 0x22, 0xfb, 0xff, 0xff, 0x00, 0x00, 0x00, 0x01, 0x14, 0x00, 0x00, 0x00, 0x1c, 0x00, 0x00, 0x00, 0x1c, 0x00, 0x00, 0x00, 0x0d, 0x00, 0x00, 0x00, 0x54, 0x00, 0x00, 0x00, 0x02, 0x00, 0x00, 0x00, 0xff, 0xff, 0xff, 0xff, 0x01, 0x00, 0x00, 0x00, 0x0c, 0xfb, 0xff, 0xff, 0x3a, 0x00, 0x00, 0x00, 0x73, 0x65, 0x71, 0x75, 0x65, 0x6e, 0x74, 0x69, 0x61, 0x6c, 0x5f, 0x33, 0x2f, 0x64, 0x65, 0x6e, 0x73, 0x65, 0x5f, 0x31, 0x33, 0x2f, 0x4d, 0x61, 0x74, 0x4d, 0x75, 0x6c, 0x3b, 0x73, 0x65, 0x71, 0x75, 0x65, 0x6e, 0x74, 0x69, 0x61, 0x6c, 0x5f, 0x33, 0x2f, 0x64, 0x65, 0x6e, 0x73, 0x65, 0x5f, 0x31, 0x33, 0x2f, 0x42, 0x69, 0x61, 0x73, 0x41, 0x64, 0x64, 0x00, 0x00, 0x02, 0x00, 0x00, 0x00, 0x01, 0x00, 0x00, 0x00, 0x01, 0x00, 0x00, 0x00, 0x9a, 0xfb, 0xff, 0xff, 0x00, 0x00, 0x00, 0x01, 0x14, 0x00, 0x00, 0x00, 0x1c, 0x00, 0x00, 0x00, 0x1c, 0x00, 0x00, 0x00, 0x0c, 0x00, 0x00, 0x00, 0x70, 0x00, 0x00, 0x00, 0x02, 0x00, 0x00, 0x00, 0xff, 0xff, 0xff, 0xff, 0x04, 0x00, 0x00, 0x00, 0x84, 0xfb, 0xff, 0xff, 0x55, 0x00, 0x00, 0x00, 0x73, 0x65, 0x71, 0x75, 0x65, 0x6e, 0x74, 0x69, 0x61, 0x6c, 0x5f, 0x33, 0x2f, 0x64, 0x65, 0x6e, 0x73, 0x65, 0x5f, 0x31, 0x32, 0x2f, 0x4d, 0x61, 0x74, 0x4d, 0x75, 0x6c, 0x3b, 0x73, 0x65, 0x71, 0x75, 0x65, 0x6e, 0x74, 0x69, 0x61, 0x6c, 0x5f, 0x33, 0x2f, 0x64, 0x65, 0x6e, 0x73, 0x65, 0x5f, 0x31, 0x32, 0x2f, 0x52, 0x65, 0x6c, 0x75, 0x3b, 0x73, 0x65, 0x71, 0x75, 0x65, 0x6e, 0x74, 0x69, 0x61, 0x6c, 0x5f, 0x33, 0x2f, 0x64, 0x65, 0x6e, 0x73, 0x65, 0x5f, 0x31, 0x32, 0x2f, 0x42, 0x69, 0x61, 0x73, 0x41, 0x64, 0x64, 0x00, 0x00, 0x00, 0x02, 0x00, 0x00, 0x00, 0x01, 0x00, 0x00, 0x00, 0x04, 0x00, 0x00, 0x00, 0x2e, 0xfc, 0xff, 0xff, 0x00, 0x00, 0x00, 0x01, 0x14, 0x00, 0x00, 0x00, 0x1c, 0x00, 0x00, 0x00, 0x1c, 0x00, 0x00, 0x00, 0x0b, 0x00, 0x00, 0x00, 0x70, 0x00, 0x00, 0x00, 0x02, 0x00, 0x00, 0x00, 0xff, 0xff, 0xff, 0xff, 0x08, 0x00, 0x00, 0x00, 0x18, 0xfc, 0xff, 0xff, 0x55, 0x00, 0x00, 0x00, 0x73, 0x65, 0x71, 0x75, 0x65, 0x6e, 0x74, 0x69, 0x61, 0x6c, 0x5f, 0x33, 0x2f, 0x64, 0x65, 0x6e, 0x73, 0x65, 0x5f, 0x31, 0x31, 0x2f, 0x4d, 0x61, 0x74, 0x4d, 0x75, 0x6c, 0x3b, 0x73, 0x65, 0x71, 0x75, 0x65, 0x6e, 0x74, 0x69, 0x61, 0x6c, 0x5f, 0x33, 0x2f, 0x64, 0x65, 0x6e, 0x73, 0x65, 0x5f, 0x31, 0x31, 0x2f, 0x52, 0x65, 0x6c, 0x75, 0x3b, 0x73, 0x65, 0x71, 0x75, 0x65, 0x6e, 0x74, 0x69, 0x61, 0x6c, 0x5f, 0x33, 0x2f, 0x64, 0x65, 0x6e, 0x73, 0x65, 0x5f, 0x31, 0x31, 0x2f, 0x42, 0x69, 0x61, 0x73, 0x41, 0x64, 0x64, 0x00, 0x00, 0x00, 0x02, 0x00, 0x00, 0x00, 0x01, 0x00, 0x00, 0x00, 0x08, 0x00, 0x00, 0x00, 0xc2, 0xfc, 0xff, 0xff, 0x00, 0x00, 0x00, 0x01, 0x14, 0x00, 0x00, 0x00, 0x1c, 0x00, 0x00, 0x00, 0x1c, 0x00, 0x00, 0x00, 0x0a, 0x00, 0x00, 0x00, 0x70, 0x00, 0x00, 0x00, 0x02, 0x00, 0x00, 0x00, 0xff, 0xff, 0xff, 0xff, 0x10, 0x00, 0x00, 0x00, 0xac, 0xfc, 0xff, 0xff, 0x55, 0x00, 0x00, 0x00, 0x73, 0x65, 0x71, 0x75, 0x65, 0x6e, 0x74, 0x69, 0x61, 0x6c, 0x5f, 0x33, 0x2f, 0x64, 0x65, 0x6e, 0x73, 0x65, 0x5f, 0x31, 0x30, 0x2f, 0x4d, 0x61, 0x74, 0x4d, 0x75, 0x6c, 0x3b, 0x73, 0x65, 0x71, 0x75, 0x65, 0x6e, 0x74, 0x69, 0x61, 0x6c, 0x5f, 0x33, 0x2f, 0x64, 0x65, 0x6e, 0x73, 0x65, 0x5f, 0x31, 0x30, 0x2f, 0x52, 0x65, 0x6c, 0x75, 0x3b, 0x73, 0x65, 0x71, 0x75, 0x65, 0x6e, 0x74, 0x69, 0x61, 0x6c, 0x5f, 0x33, 0x2f, 0x64, 0x65, 0x6e, 0x73, 0x65, 0x5f, 0x31, 0x30, 0x2f, 0x42, 0x69, 0x61, 0x73, 0x41, 0x64, 0x64, 0x00, 0x00, 0x00, 0x02, 0x00, 0x00, 0x00, 0x01, 0x00, 0x00, 0x00, 0x10, 0x00, 0x00, 0x00, 0xc6, 0xfd, 0xff, 0xff, 0x00, 0x00, 0x00, 0x01, 0x10, 0x00, 0x00, 0x00, 0x10, 0x00, 0x00, 0x00, 0x09, 0x00, 0x00, 0x00, 0x2c, 0x00, 0x00, 0x00, 0x30, 0xfd, 0xff, 0xff, 0x1c, 0x00, 0x00, 0x00, 0x73, 0x65, 0x71, 0x75, 0x65, 0x6e, 0x74, 0x69, 0x61, 0x6c, 0x5f, 0x33, 0x2f, 0x64, 0x65, 0x6e, 0x73, 0x65, 0x5f, 0x31, 0x33, 0x2f, 0x4d, 0x61, 0x74, 0x4d, 0x75, 0x6c, 0x00, 0x00, 0x00, 0x00, 0x02, 0x00, 0x00, 0x00, 0x01, 0x00, 0x00, 0x00, 0x04, 0x00, 0x00, 0x00, 0x12, 0xfe, 0xff, 0xff, 0x00, 0x00, 0x00, 0x01, 0x10, 0x00, 0x00, 0x00, 0x10, 0x00, 0x00, 0x00, 0x08, 0x00, 0x00, 0x00, 0x2c, 0x00, 0x00, 0x00, 0x7c, 0xfd, 0xff, 0xff, 0x1c, 0x00, 0x00, 0x00, 0x73, 0x65, 0x71, 0x75, 0x65, 0x6e, 0x74, 0x69, 0x61, 0x6c, 0x5f, 0x33, 0x2f, 0x64, 0x65, 0x6e, 0x73, 0x65, 0x5f, 0x31, 0x32, 0x2f, 0x4d, 0x61, 0x74, 0x4d, 0x75, 0x6c, 0x00, 0x00, 0x00, 0x00, 0x02, 0x00, 0x00, 0x00, 0x04, 0x00, 0x00, 0x00, 0x08, 0x00, 0x00, 0x00, 0x5e, 0xfe, 0xff, 0xff, 0x00, 0x00, 0x00, 0x01, 0x10, 0x00, 0x00, 0x00, 0x10, 0x00, 0x00, 0x00, 0x07, 0x00, 0x00, 0x00, 0x2c, 0x00, 0x00, 0x00, 0xc8, 0xfd, 0xff, 0xff, 0x1c, 0x00, 0x00, 0x00, 0x73, 0x65, 0x71, 0x75, 0x65, 0x6e, 0x74, 0x69, 0x61, 0x6c, 0x5f, 0x33, 0x2f, 0x64, 0x65, 0x6e, 0x73, 0x65, 0x5f, 0x31, 0x31, 0x2f, 0x4d, 0x61, 0x74, 0x4d, 0x75, 0x6c, 0x00, 0x00, 0x00, 0x00, 0x02, 0x00, 0x00, 0x00, 0x08, 0x00, 0x00, 0x00, 0x10, 0x00, 0x00, 0x00, 0xaa, 0xfe, 0xff, 0xff, 0x00, 0x00, 0x00, 0x01, 0x10, 0x00, 0x00, 0x00, 0x10, 0x00, 0x00, 0x00, 0x06, 0x00, 0x00, 0x00, 0x2c, 0x00, 0x00, 0x00, 0x14, 0xfe, 0xff, 0xff, 0x1c, 0x00, 0x00, 0x00, 0x73, 0x65, 0x71, 0x75, 0x65, 0x6e, 0x74, 0x69, 0x61, 0x6c, 0x5f, 0x33, 0x2f, 0x64, 0x65, 0x6e, 0x73, 0x65, 0x5f, 0x31, 0x30, 0x2f, 0x4d, 0x61, 0x74, 0x4d, 0x75, 0x6c, 0x00, 0x00, 0x00, 0x00, 0x02, 0x00, 0x00, 0x00, 0x10, 0x00, 0x00, 0x00, 0x04, 0x00, 0x00, 0x00, 0xf6, 0xfe, 0xff, 0xff, 0x00, 0x00, 0x00, 0x01, 0x10, 0x00, 0x00, 0x00, 0x10, 0x00, 0x00, 0x00, 0x05, 0x00, 0x00, 0x00, 0x3c, 0x00, 0x00, 0x00, 0x60, 0xfe, 0xff, 0xff, 0x2c, 0x00, 0x00, 0x00, 0x73, 0x65, 0x71, 0x75, 0x65, 0x6e, 0x74, 0x69, 0x61, 0x6c, 0x5f, 0x33, 0x2f, 0x64, 0x65, 0x6e, 0x73, 0x65, 0x5f, 0x31, 0x30, 0x2f, 0x42, 0x69, 0x61, 0x73, 0x41, 0x64, 0x64, 0x2f, 0x52, 0x65, 0x61, 0x64, 0x56, 0x61, 0x72, 0x69, 0x61, 0x62, 0x6c, 0x65, 0x4f, 0x70, 0x00, 0x00, 0x00, 0x00, 0x01, 0x00, 0x00, 0x00, 0x10, 0x00, 0x00, 0x00, 0x4e, 0xff, 0xff, 0xff, 0x00, 0x00, 0x00, 0x01, 0x10, 0x00, 0x00, 0x00, 0x10, 0x00, 0x00, 0x00, 0x04, 0x00, 0x00, 0x00, 0x3c, 0x00, 0x00, 0x00, 0xb8, 0xfe, 0xff, 0xff, 0x2c, 0x00, 0x00, 0x00, 0x73, 0x65, 0x71, 0x75, 0x65, 0x6e, 0x74, 0x69, 0x61, 0x6c, 0x5f, 0x33, 0x2f, 0x64, 0x65, 0x6e, 0x73, 0x65, 0x5f, 0x31, 0x31, 0x2f, 0x42, 0x69, 0x61, 0x73, 0x41, 0x64, 0x64, 0x2f, 0x52, 0x65, 0x61, 0x64, 0x56, 0x61, 0x72, 0x69, 0x61, 0x62, 0x6c, 0x65, 0x4f, 0x70, 0x00, 0x00, 0x00, 0x00, 0x01, 0x00, 0x00, 0x00, 0x08, 0x00, 0x00, 0x00, 0xa6, 0xff, 0xff, 0xff, 0x00, 0x00, 0x00, 0x01, 0x10, 0x00, 0x00, 0x00, 0x10, 0x00, 0x00, 0x00, 0x03, 0x00, 0x00, 0x00, 0x3c, 0x00, 0x00, 0x00, 0x10, 0xff, 0xff, 0xff, 0x2c, 0x00, 0x00, 0x00, 0x73, 0x65, 0x71, 0x75, 0x65, 0x6e, 0x74, 0x69, 0x61, 0x6c, 0x5f, 0x33, 0x2f, 0x64, 0x65, 0x6e, 0x73, 0x65, 0x5f, 0x31, 0x32, 0x2f, 0x42, 0x69, 0x61, 0x73, 0x41, 0x64, 0x64, 0x2f, 0x52, 0x65, 0x61, 0x64, 0x56, 0x61, 0x72, 0x69, 0x61, 0x62, 0x6c, 0x65, 0x4f, 0x70, 0x00, 0x00, 0x00, 0x00, 0x01, 0x00, 0x00, 0x00, 0x04, 0x00, 0x00, 0x00, 0x00, 0x00, 0x16, 0x00, 0x18, 0x00, 0x14, 0x00, 0x00, 0x00, 0x10, 0x00, 0x0c, 0x00, 0x08, 0x00, 0x00, 0x00, 0x00, 0x00, 0x00, 0x00, 0x07, 0x00, 0x16, 0x00, 0x00, 0x00, 0x00, 0x00, 0x00, 0x01, 0x10, 0x00, 0x00, 0x00, 0x10, 0x00, 0x00, 0x00, 0x02, 0x00, 0x00, 0x00, 0x3c, 0x00, 0x00, 0x00, 0x80, 0xff, 0xff, 0xff, 0x2c, 0x00, 0x00, 0x00, 0x73, 0x65, 0x71, 0x75, 0x65, 0x6e, 0x74, 0x69, 0x61, 0x6c, 0x5f, 0x33, 0x2f, 0x64, 0x65, 0x6e, 0x73, 0x65, 0x5f, 0x31, 0x33, 0x2f, 0x42, 0x69, 0x61, 0x73, 0x41, 0x64, 0x64, 0x2f, 0x52, 0x65, 0x61, 0x64, 0x56, 0x61, 0x72, 0x69, 0x61, 0x62, 0x6c, 0x65, 0x4f, 0x70, 0x00, 0x00, 0x00, 0x00, 0x01, 0x00, 0x00, 0x00, 0x01, 0x00, 0x00, 0x00, 0x00, 0x00, 0x16, 0x00, 0x1c, 0x00, 0x18, 0x00, 0x00, 0x00, 0x14, 0x00, 0x10, 0x00, 0x0c, 0x00, 0x00, 0x00, 0x00, 0x00, 0x08, 0x00, 0x07, 0x00, 0x16, 0x00, 0x00, 0x00, 0x00, 0x00, 0x00, 0x01, 0x14, 0x00, 0x00, 0x00, 0x20, 0x00, 0x00, 0x00, 0x20, 0x00, 0x00, 0x00, 0x01, 0x00, 0x00, 0x00, 0x40, 0x00, 0x00, 0x00, 0x02, 0x00, 0x00, 0x00, 0xff, 0xff, 0xff, 0xff, 0x04, 0x00, 0x00, 0x00, 0x04, 0x00, 0x04, 0x00, 0x04, 0x00, 0x00, 0x00, 0x20, 0x00, 0x00, 0x00, 0x73, 0x65, 0x72, 0x76, 0x69, 0x6e, 0x67, 0x5f, 0x64, 0x65, 0x66, 0x61, 0x75, 0x6c, 0x74, 0x5f, 0x64, 0x65, 0x6e, 0x73, 0x65, 0x5f, 0x31, 0x30, 0x5f, 0x69, 0x6e, 0x70, 0x75, 0x74, 0x3a, 0x30, 0x00, 0x00, 0x00, 0x00, 0x02, 0x00, 0x00, 0x00, 0x01, 0x00, 0x00, 0x00, 0x04, 0x00, 0x00, 0x00, 0x02, 0x00, 0x00, 0x00, 0x20, 0x00, 0x00, 0x00, 0x04, 0x00, 0x00, 0x00, 0xf4, 0xff, 0xff, 0xff, 0x0e, 0x00, 0x00, 0x00, 0x00, 0x00, 0x00, 0x0e, 0x0c, 0x00, 0x0c, 0x00, 0x0b, 0x00, 0x00, 0x00, 0x00, 0x00, 0x04, 0x00, 0x0c, 0x00, 0x00, 0x00, 0x09, 0x00, 0x00, 0x00, 0x00, 0x00, 0x00, 0x09 };
const unsigned int tflite_model_len = 3580;
#endif